<pad>	0
<unk>	0
<s>	0
</s>	0
<|user|>	0
<|assistant|>	0
<|end|>	0
he	-0
▁t	-1
▁a	-2
▁s	-3
▁w	-4
nd	-5
▁the	-6
ed	-7
▁and	-8
▁to	-9
in	-10
▁b	-11
▁h	-12
re	-13
▁wa	-14
▁f	-15
ou	-16
it	-17
▁T	-18
▁c	-19
▁l	-20
▁d	-21
er	-22
▁he	-23
▁m	-24
▁p	-25
▁was	-26
om	-27
on	-28
ay	-29
▁The	-30
is	-31
ar	-32
ing	-33
il	-34
▁g	-35
id	-36
at	-37
▁S	-38
en	-39
▁n	-40
▁sa	-41
▁ha	-42
or	-43
an	-44
im	-45
▁it	-46
ot	-47
▁th	-48
▁H	-49
es	-50
ll	-51
▁"	-52
le	-53
▁her	-54
▁o	-55
▁She	-56
et	-57
ir	-58
▁He	-59
▁They	-60
▁in	-61
ver	-62
▁L	-63
ut	-64
ow	-65
ck	-66
▁e	-67
ily	-68
▁u	-69
ld	-70
▁y	-71
oo	-72
ig	-73
▁said	-74
am	-75
▁r	-76
▁I	-77
▁be	-78
▁st	-79
ve	-80
ce	-81
ith	-82
▁Lily	-83
ke	-84
pp	-85
▁with	-86
▁she	-87
▁O	-88
▁on	-89
▁On	-90
ri	-91
▁you	-92
▁of	-93
▁pl	-94
ked	-95
▁his	-96
nt	-97
▁B	-98
ad	-99
▁so	-100
very	-101
▁day	-102
▁that	-103
▁play	-104
st	-105
▁up	-106
▁they	-107
▁we	-108
▁had	-109
▁mom	-110
▁for	-111
el	-112
▁M	-113
un	-114
my	-115
ch	-116
ould	-117
ent	-118
▁li	-119
▁happ	-120
▁want	-121
itt	-122
her	-123
▁sh	-124
▁do	-125
out	-126
▁not	-127
▁A	-128
al	-129
se	-130
all	-131
end	-132
ome	-133
▁very	-134
ly	-135
▁k	-136
ound	-137
▁wh	-138
ime	-139
ittle	-140
▁is	-141
▁time	-142
▁little	-143
ht	-144
▁ne	-145
▁there	-146
▁re	-147
▁big	-148
▁happy	-149
▁It	-150
ra	-151
▁but	-152
▁sm	-153
▁saw	-154
riend	-155
▁friend	-156
▁an	-157
."	-158
▁Tim	-159
ry	-160
▁as	-161
ack	-162
ide	-163
▁One	-164
ake	-165
ter	-166
ug	-167
▁lo	-168
ved	-169
▁were	-170
▁se	-171
!"	-172
▁loo	-173
ore	-174
▁Once	-175
▁him	-176
▁too	-177
▁bo	-178
ec	-179
▁go	-180
▁are	-181
▁J	-182
ill	-183
▁wanted	-184
▁them	-185
▁j	-186
▁upon	-187
ard	-188
irl	-189
▁did	-190
▁Ben	-191
▁at	-192
▁their	-193
▁out	-194
ur	-195
▁girl	-196
ind	-197
▁Tom	-198
ul	-199
way	-200
ic	-201
▁sp	-202
hen	-203
▁could	-204
▁have	-205
ain	-206
▁smil	-207
lp	-208
art	-209
rom	-210
▁went	-211
▁ex	-212
▁can	-213
hed	-214
▁nam	-215
▁W	-216
round	-217
▁help	-218
▁friends	-219
ood	-220
▁But	-221
▁kn	-222
?"	-223
ful	-224
um	-225
▁Timmy	-226
ight	-227
other	-228
▁all	-229
hing	-230
▁say	-231
ark	-232
▁le	-233
▁back	-234
▁fun	-235
You	-236
one	-237
▁cl	-238
are	-239
op	-240
▁named	-241
▁no	-242
▁sc	-243
▁loved	-244
elt	-245
▁al	-246
▁toy	-247
oug	-248
side	-249
▁felt	-250
▁fe	-251
ick	-252
▁like	-253
▁man	-254
▁see	-255
▁asked	-256
ame	-257
▁smiled	-258
▁me	-259
ure	-260
ro	-261
as	-262
▁some	-263
▁ro	-264
▁looked	-265
get	-266
▁around	-267
▁bir	-268
omet	-269
hat	-270
ice	-271
▁boy	-272
▁would	-273
ong	-274
▁start	-275
▁bird	-276
▁wor	-277
ag	-278
▁ag	-279
ings	-280
ade	-281
▁make	-282
▁somet	-283
▁fa	-284
if	-285
▁what	-286
king	-287
▁You	-288
dd	-289
▁tre	-290
gether	-291
own	-292
,"	-293
▁says	-294
▁co	-295
▁away	-296
▁Mom	-297
oud	-298
▁ran	-299
ie	-300
▁car	-301
▁made	-302
▁started	-303
▁together	-304
▁park	-305
ared	-306
▁sad	-307
▁other	-308
▁F	-309
▁from	-310
▁something	-311
▁new	-312
▁put	-313
us	-314
ab	-315
ell	-316
▁E	-317
ited	-318
▁again	-319
▁br	-320
▁good	-321
est	-322
▁hug	-323
ep	-324
ook	-325
ach	-326
▁home	-327
▁when	-328
▁fl	-329
ried	-330
▁exc	-331
▁found	-332
▁who	-333
▁ch	-334
▁D	-335
▁then	-336
▁ab	-337
qu	-338
▁la	-339
▁dec	-340
▁get	-341
ess	-342
pped	-343
▁playing	-344
ought	-345
uch	-346
ust	-347
▁sw	-348
pl	-349
ally	-350
ous	-351
ss	-352
▁pr	-353
▁wal	-354
▁things	-355
uck	-356
▁liked	-357
nn	-358
▁got	-359
ax	-360
ave	-361
▁every	-362
▁bl	-363
▁Sam	-364
arn	-365
ist	-366
▁came	-367
▁dog	-368
▁your	-369
▁decid	-370
▁bec	-371
▁excited	-372
▁decided	-373
ion	-374
▁Su	-375
▁Ann	-376
▁v	-377
▁feel	-378
ant	-379
▁find	-380
▁down	-381
▁care	-382
ap	-383
ers	-384
▁scared	-385
ny	-386
▁dad	-387
▁my	-388
ouse	-389
▁one	-390
our	-391
▁Max	-392
Yes	-393
ara	-394
▁than	-395
▁about	-396
fe	-397
▁didn	-398
ways	-399
▁toys	-400
▁Anna	-401
▁ball	-402
▁gra	-403
▁will	-404
▁learn	-405
▁mommy	-406
▁took	-407
ite	-408
▁always	-409
nder	-410
▁ke	-411
▁lot	-412
▁po	-413
▁pre	-414
▁tree	-415
▁look	-416
ise	-417
▁Sara	-418
▁outside	-419
▁int	-420
▁kne	-421
▁thought	-422
▁more	-423
▁know	-424
▁ho	-425
ened	-426
▁So	-427
▁sor	-428
ive	-429
eci	-430
ged	-431
ched	-432
▁When	-433
▁tr	-434
▁cat	-435
▁take	-436
ak	-437
ull	-438
▁Her	-439
▁pe	-440
▁any	-441
▁laug	-442
What	-443
ecial	-444
ma	-445
fter	-446
▁special	-447
▁knew	-448
ink	-449
▁how	-450
▁old	-451
▁or	-452
▁sorry	-453
ia	-454
▁show	-455
and	-456
▁much	-457
ish	-458
▁run	-459
dden	-460
ate	-461
▁mo	-462
▁sl	-463
▁hand	-464
▁house	-465
▁Jo	-466
▁sk	-467
ven	-468
▁op	-469
▁com	-470
▁tw	-471
ddenly	-472
▁water	-473
use	-474
▁told	-475
▁en	-476
▁gave	-477
▁sun	-478
here	-479
ty	-480
ast	-481
▁tried	-482
▁into	-483
▁Every	-484
▁qu	-485
ank	-486
▁inside	-487
▁clo	-488
▁over	-489
▁We	-490
▁Jack	-491
▁played	-492
▁proud	-493
ause	-494
ge	-495
▁room	-496
ump	-497
etter	-498
▁pret	-499
▁eat	-500
▁each	-501
▁C	-502
▁if	-503
▁couldn	-504
dy	-505
ace	-506
▁pick	-507
▁never	-508
ue	-509
ob	-510
▁expl	-511
▁heard	-512
▁From	-513
▁this	-514
iz	-515
▁hugged	-516
▁because	-517
▁box	-518
▁gre	-519
▁many	-520
▁need	-521
▁just	-522
ine	-523
▁Mia	-524
▁str	-525
▁wat	-526
ile	-527
▁nice	-528
▁And	-529
▁Suddenly	-530
oth	-531
ort	-532
ct	-533
▁small	-534
▁fo	-535
▁long	-536
▁Then	-537
ving	-538
▁learned	-539
▁His	-540
urt	-541
▁sn	-542
▁off	-543
ild	-544
gry	-545
▁im	-546
▁bear	-547
imal	-548
▁love	-549
ough	-550
▁better	-551
▁te	-552
▁animal	-553
▁bu	-554
bb	-555
sel	-556
ies	-557
▁unt	-558
ft	-559
▁try	-560
▁dre	-561
▁until	-562
pt	-563
▁end	-564
▁us	-565
▁best	-566
▁kind	-567
▁cle	-568
em	-569
ber	-570
ves	-571
▁flow	-572
▁call	-573
▁fi	-574
urn	-575
ect	-576
uc	-577
able	-578
▁careful	-579
▁ad	-580
▁gr	-581
vent	-582
ars	-583
▁fast	-584
▁P	-585
ady	-586
oy	-587
▁che	-588
▁don	-589
▁even	-590
aut	-591
▁sky	-592
urp	-593
▁bra	-594
▁gl	-595
iny	-596
▁thanked	-597
ase	-598
▁con	-599
Th	-600
▁by	-601
self	-602
arden	-603
▁garden	-604
▁loud	-605
▁jump	-606
▁beaut	-607
▁list	-608
wn	-609
▁cu	-610
▁still	-611
▁hurt	-612
▁laughed	-613
▁fam	-614
▁lots	-615
▁hard	-616
lew	-617
▁come	-618
hes	-619
▁animals	-620
▁under	-621
▁way	-622
les	-623
iful	-624
rm	-625
▁beautiful	-626
be	-627
ool	-628
▁â	-629
▁bad	-630
▁G	-631
▁col	-632
▁As	-633
▁let	-634
▁imp	-635
▁wo	-636
by	-637
ning	-638
▁safe	-639
▁rem	-640
ock	-641
▁lived	-642
No	-643
▁its	-644
ople	-645
kay	-646
▁both	-647
▁red	-648
▁stay	-649
▁book	-650
▁clos	-651
▁dan	-652
ip	-653
▁does	-654
▁After	-655
ished	-656
▁should	-657
▁stor	-658
▁brave	-659
▁family	-660
xt	-661
ons	-662
▁share	-663
▁people	-664
▁Joh	-665
igh	-666
▁pic	-667
▁angry	-668
▁two	-669
▁fin	-670
▁clean	-671
▁pretty	-672
▁fly	-673
ane	-674
▁walked	-675
ree	-676
▁flew	-677
▁doll	-678
age	-679
It	-680
ucy	-681
▁called	-682
▁fr	-683
▁dra	-684
▁rock	-685
ac	-686
urpr	-687
▁Lucy	-688
fore	-689
led	-690
▁soon	-691
▁surpr	-692
▁fore	-693
dded	-694
▁shiny	-695
▁wind	-696
▁keep	-697
▁door	-698
so	-699
▁ide	-700
Let	-701
▁now	-702
▁kept	-703
▁un	-704
▁real	-705
ied	-706
▁ground	-707
th	-708
▁cre	-709
ised	-710
▁going	-711
▁Bob	-712
▁has	-713
ummy	-714
▁cry	-715
▁R	-716
illy	-717
ation	-718
ff	-719
aking	-720
▁opened	-721
▁explore	-722
▁also	-723
▁before	-724
ary	-725
ble	-726
▁far	-727
▁advent	-728
iss	-729
▁color	-730
▁turn	-731
▁noise	-732
▁sto	-733
▁tra	-734
▁picked	-735
ture	-736
▁N	-737
▁John	-738
▁ey	-739
ious	-740
▁feeling	-741
▁while	-742
aybe	-743
▁wr	-744
▁idea	-745
▁thr	-746
eet	-747
▁next	-748
thing	-749
▁pu	-750
▁nodded	-751
▁Mommy	-752
imb	-753
▁Dad	-754
▁picture	-755
▁truck	-756
▁climb	-757
▁bed	-758
▁Sp	-759
▁being	-760
▁de	-761
ger	-762
▁dif	-763
akes	-764
Thank	-765
▁smile	-766
ail	-767
▁think	-768
▁work	-769
joy	-770
ting	-771
ember	-772
▁adventure	-773
▁blue	-774
▁listen	-775
▁walking	-776
irst	-777
ted	-778
▁bre	-779
▁app	-780
ized	-781
▁give	-782
▁food	-783
▁hands	-784
aug	-785
aught	-786
iced	-787
▁wait	-788
▁tow	-789
▁after	-790
That	-791
▁bro	-792
fere	-793
▁eyes	-794
▁Sue	-795
co	-796
▁enjoy	-797
▁own	-798
▁use	-799
▁slide	-800
TM	-801
▁repl	-802
▁remember	-803
▁fish	-804
▁great	-805
▁jo	-806
▁looking	-807
▁watch	-808
▁ac	-809
▁stopped	-810
▁mean	-811
▁tal	-812
llow	-813
▁ask	-814
maz	-815
▁walk	-816
▁boat	-817
▁ever	-818
▁dis	-819
ng	-820
▁stick	-821
▁amaz	-822
▁flowers	-823
▁near	-824
▁strong	-825
▁okay	-826
▁differe	-827
▁import	-828
▁rain	-829
▁head	-830
▁showed	-831
▁where	-832
▁quick	-833
▁Spot	-834
▁right	-835
▁forest	-836
ath	-837
▁del	-838
▁important	-839
▁wonder	-840
▁noticed	-841
bit	-842
ass	-843
oes	-844
▁vo	-845
▁follow	-846
lease	-847
We	-848
▁su	-849
abbit	-850
▁shout	-851
▁different	-852
▁everyone	-853
▁our	-854
▁cont	-855
▁yell	-856
▁place	-857
▁sound	-858
▁Th	-859
gan	-860
▁dress	-861
▁replied	-862
day	-863
Can	-864
▁am	-865
ndma	-866
▁rabbit	-867
bye	-868
▁became	-869
▁high	-870
▁hop	-871
▁ar	-872
bbed	-873
▁cake	-874
▁watched	-875
more	-876
Look	-877
▁anymore	-878
ered	-879
▁quickly	-880
▁mor	-881
▁bright	-882
ange	-883
▁curi	-884
ount	-885
▁store	-886
▁forg	-887
▁sure	-888
▁cook	-889
imes	-890
▁child	-891
▁mag	-892
ila	-893
leep	-894
▁tell	-895
▁been	-896
▁first	-897
▁pain	-898
▁ye	-899
▁squ	-900
itc	-901
▁open	-902
▁fav	-903
▁curious	-904
▁warm	-905
▁goodbye	-906
▁face	-907
▁Lila	-908
ired	-909
ush	-910
▁	-911
e	-912
a	-913
t	-914
o	-915
h	-916
n	-917
i	-918
d	-919
s	-920
r	-921
l	-922
y	-923
m	-924
w	-925
.	-926
u	-927
c	-928
g	-929
p	-930
f	-931
b	-932
k	-933
,	-934
T	-935
v	-936
"	-937
S	-938
H	-939
L	-940
I	-941
'	-942
O	-943
!	-944
B	-945
M	-946
x	-947
A	-948
W	-949
j	-950
Y	-951
J	-952
?	-953
z	-954
D	-955
F	-956
E	-957
â	-958
€	-959
C	-960
q	-961
N	-962
P	-963
-	-964
G	-965
:	-966
R	-967
œ	-968
K	-969
*	-970
2	-971
3	-972
Q	-973
0	-974
/	-975
V	-976
Z	-977
U	-978
4	-979
8	-980
1	-981
;	-982
9	-983
<	-984
>	-985
)	-986
(	-987
5	-988
“	-989
7	-990
+	-991
X	-992
6	-993
[	-994
]	-995
”	-996
&	-997
̃	-998
@	-999
#	-1000
¦	-1001
\	-1002
_	-1003
|	-1004
Ã	-1005
©	-1006
Â	-1007
%	-1008
–	-1009
’	-1010
$	-1011
«	-1012
»	-1013
±	-1014
¡	-1015
́	-1016
